TRT-6001-EntropyCalibration
input_1: 3c010a14
adjusted_input18: 3c010a14
batch_norm_output_buffer13: 3ea7a99d
stem_activation/mul:0_sig: 3c010a14
stem_activation/mul:0: 3e98c732
batch_norm_output_buffer10: 3e62304f
block1a_activation/mul:0_sig: 3c010a14
block1a_activation/mul:0: 3e03327e
block1a_activation/mul:0_pooling0: 3db6677f
convolution_output11: 3e2f4d85
transpose_output11_sig: 3b15c7ae
block1a_se_reduce/mul:0: 3b1067c8
convolution_output9: 3c2a9953
block1a_se_expand/Sigmoid:0: 3bc06c3d
block1a_se_excite/mul:0: 3db72b09
batch_norm_output_buffer6: 3f04c063
batch_norm_output_buffer11: 3e818277
block1b_activation/mul:0_sig: 3c010a14
block1b_activation/mul:0: 3e9439c6
block1b_activation/mul:0_pooling0: 3d3a9434
convolution_output14: 3d31bf80
transpose_output14_sig: 3be3ca5a
block1b_se_reduce/mul:0: 3c3dda81
convolution_output10: 3c17fab0
block1b_se_expand/Sigmoid:0: 3bc9e8d2
block1b_se_excite/mul:0: 3e03592e
block1b_add/add:0: 3f0dab18
batch_norm_output_buffer4: 3e8fd402
block2a_expand_bn/FusedBatchNormV3:0: 3e8fd402
block2a_expand_activation/mul:0_sig: 3c010a14
block2a_expand_activation/mul:0: 3e1ca4ff
adjusted_input35: 3e1ca4ff
batch_norm_output_buffer22: 3eaece20
block2a_activation/mul:0_sig: 3c010a14
block2a_activation/mul:0: 3e99a0f8
block2a_activation/mul:0_pooling0: 3dc0ed25
convolution_output32: 3e97261e
transpose_output32_sig: 3b02e70f
block2a_se_reduce/mul:0: 3b102d2e
convolution_output28: 3c890c95
block2a_se_expand/Sigmoid:0: 3bb3e43f
block2a_se_excite/mul:0: 3e151cea
batch_norm_output_buffer16: 3ef0a9a5
batch_norm_output_buffer31: 3e34a5e5
block2b_expand_activation/mul:0_sig: 3c010a14
block2b_expand_activation/mul:0: 3d945ee8
batch_norm_output_buffer24: 3e0cff5d
block2b_activation/mul:0_sig: 3c010a14
block2b_activation/mul:0: 3d994b04
block2b_activation/mul:0_pooling0: 3c9937eb
convolution_output34: 3d51fcd4
transpose_output34_sig: 3c01ede8
block2b_se_reduce/mul:0: 3ce70795
convolution_output31: 3d64dd5f
block2b_se_expand/Sigmoid:0: 3be3f64c
block2b_se_excite/mul:0: 3d1e9414
block2b_add/add:0: 3eeb2fde
batch_norm_output_buffer29: 3e28b5df
block2c_expand_activation/mul:0_sig: 3c010a14
block2c_expand_activation/mul:0: 3d6c5b46
batch_norm_output_buffer21: 3e5cdf11
block2c_activation/mul:0_sig: 3c010a14
block2c_activation/mul:0: 3e6caa97
block2c_activation/mul:0_pooling0: 3ce07f05
convolution_output30: 3d816816
transpose_output30_sig: 3c014fdf
block2c_se_reduce/mul:0: 3d65fe52
convolution_output27: 3d958188
block2c_se_expand/Sigmoid:0: 3c00d6db
block2c_se_excite/mul:0: 3d1b1f88
block2c_add/add:0: 3f05d031
batch_norm_output_buffer26: 3e155e95
block2d_expand_activation/mul:0_sig: 3c010a14
block2d_expand_activation/mul:0: 3d69c630
batch_norm_output_buffer20: 3e49072d
block2d_activation/mul:0_sig: 3c010a14
block2d_activation/mul:0: 3da11fa3
block2d_activation/mul:0_pooling0: 3cc6245b
convolution_output26: 3d479e0c
transpose_output26_sig: 3c036e4e
block2d_se_reduce/mul:0: 3d403e1b
convolution_output22: 3d1a45d6
block2d_se_expand/Sigmoid:0: 3bf4dfb5
block2d_se_excite/mul:0: 3cff5528
block2d_add/add:0: 3f26a92c
batch_norm_output_buffer9: 3e04d91c
block3a_expand_bn/FusedBatchNormV3:0: 3e04d91c
block3a_expand_activation/mul:0_sig: 3c010a14
block3a_expand_activation/mul:0: 3d971faa
adjusted_input57: 3d971faa
batch_norm_output_buffer36: 3e289832
block3a_activation/mul:0_sig: 3c010a14
block3a_activation/mul:0: 3d90366f
block3a_activation/mul:0_pooling0: 3d4a993e
convolution_output54: 3d0bb994
transpose_output54_sig: 3afa14cd
block3a_se_reduce/mul:0: 3b12e3e5
convolution_output50: 3b6d5a1e
block3a_se_expand/Sigmoid:0: 3ba7684b
block3a_se_excite/mul:0: 3d415905
batch_norm_output_buffer28: 3eb335d1
batch_norm_output_buffer45: 3df9b3f1
block3b_expand_activation/mul:0_sig: 3c01121e
block3b_expand_activation/mul:0: 3d51ead4
batch_norm_output_buffer38: 3e612115
block3b_activation/mul:0_sig: 3c010a14
block3b_activation/mul:0: 3e1ae9da
block3b_activation/mul:0_pooling0: 3d1e3d94
convolution_output56: 3d473b0e
transpose_output56_sig: 3c00290b
block3b_se_reduce/mul:0: 3d244149
convolution_output53: 3d3c4167
block3b_se_expand/Sigmoid:0: 3be6f7bf
block3b_se_excite/mul:0: 3cf12c83
block3b_add/add:0: 3ec047bb
batch_norm_output_buffer42: 3e0a0772
block3c_expand_activation/mul:0_sig: 3c011220
block3c_expand_activation/mul:0: 3d428a06
batch_norm_output_buffer35: 3e4fcd12
block3c_activation/mul:0_sig: 3c010a14
block3c_activation/mul:0: 3dabb256
block3c_activation/mul:0_pooling0: 3ce398ff
convolution_output52: 3cea13c8
transpose_output52_sig: 3c04265b
block3c_se_reduce/mul:0: 3ce62144
convolution_output49: 3d26fdce
block3c_se_expand/Sigmoid:0: 3be51611
block3c_se_excite/mul:0: 3ce7fe5a
block3c_add/add:0: 3ec895b0
batch_norm_output_buffer40: 3db4df74
block3d_expand_activation/mul:0_sig: 3c0e4c7d
block3d_expand_activation/mul:0: 3d764256
batch_norm_output_buffer34: 3e2b6208
block3d_activation/mul:0_sig: 3c010a14
block3d_activation/mul:0: 3e28c058
block3d_activation/mul:0_pooling0: 3ce3ed93
convolution_output48: 3d6dfc5a
transpose_output48_sig: 3c00db89
block3d_se_reduce/mul:0: 3d6bc6ac
convolution_output43: 3d437556
block3d_se_expand/Sigmoid:0: 3be6d970
block3d_se_excite/mul:0: 3cb2c733
block3d_add/add:0: 3edf92c8
batch_norm_output_buffer19: 3dc350ae
block4a_expand_bn/FusedBatchNormV3:0: 3dc350ae
block4a_expand_activation/mul:0_sig: 3c01121a
block4a_expand_activation/mul:0: 3d71f0f6
adjusted_input156: 3d71f0f6
batch_norm_output_buffer92: 3e189ba3
block4a_activation/mul:0_sig: 3c010a14
block4a_activation/mul:0: 3d91f1cf
block4a_activation/mul:0_pooling0: 3d1ef06b
convolution_output147: 3d57bad5
transpose_output147_sig: 3ad30704
block4a_se_reduce/mul:0: 3b1164c8
convolution_output138: 3b587d1e
block4a_se_expand/Sigmoid:0: 3baf3849
block4a_se_excite/mul:0: 3d3a0920
batch_norm_output_buffer76: 3eb69203
batch_norm_output_buffer104: 3daa4760
block4b_expand_activation/mul:0_sig: 3c075e5f
block4b_expand_activation/mul:0: 3d00171b
batch_norm_output_buffer97: 3e5b03fd
block4b_activation/mul:0_sig: 3c010a14
block4b_activation/mul:0: 3d9181a8
block4b_activation/mul:0_pooling0: 3d3e64eb
convolution_output155: 3de8915d
transpose_output155_sig: 3c0109b0
block4b_se_reduce/mul:0: 3d8fd008
convolution_output146: 3d94b77c
block4b_se_expand/Sigmoid:0: 3c00892c
block4b_se_excite/mul:0: 3caaaa70
block4b_add/add:0: 3eafea6f
batch_norm_output_buffer102: 3da7c571
block4c_expand_activation/mul:0_sig: 3c010b26
block4c_expand_activation/mul:0: 3d00cf08
batch_norm_output_buffer91: 3e63eedf
block4c_activation/mul:0_sig: 3c010a14
block4c_activation/mul:0: 3dc0a0a1
block4c_activation/mul:0_pooling0: 3d220f70
convolution_output145: 3db1b83c
transpose_output145_sig: 3c0be529
block4c_se_reduce/mul:0: 3d8f05c9
convolution_output137: 3dab5f1b
block4c_se_expand/Sigmoid:0: 3c010fe3
block4c_se_excite/mul:0: 3cd569c3
block4c_add/add:0: 3eae423f
batch_norm_output_buffer100: 3da4f119
block4d_expand_activation/mul:0_sig: 3c011146
block4d_expand_activation/mul:0: 3d14f91e
batch_norm_output_buffer87: 3e514a89
block4d_activation/mul:0_sig: 3c010a14
block4d_activation/mul:0: 3dc0a080
block4d_activation/mul:0_pooling0: 3d053837
convolution_output136: 3d45453a
transpose_output136_sig: 3c018d79
block4d_se_reduce/mul:0: 3d65a6ea
convolution_output129: 3d530c6e
block4d_se_expand/Sigmoid:0: 3bf18345
block4d_se_excite/mul:0: 3cb522dd
block4d_add/add:0: 3ec47d17
batch_norm_output_buffer96: 3dbfb168
block4e_expand_activation/mul:0_sig: 3c011118
block4e_expand_activation/mul:0: 3d125625
batch_norm_output_buffer84: 3e7f275a
block4e_activation/mul:0_sig: 3c010a14
block4e_activation/mul:0: 3e8f7e2d
block4e_activation/mul:0_pooling0: 3d34c7d6
convolution_output128: 3dcad9a7
transpose_output128_sig: 3c00cdee
block4e_se_reduce/mul:0: 3d67b31a
convolution_output119: 3da20db1
block4e_se_expand/Sigmoid:0: 3c04314a
block4e_se_excite/mul:0: 3d16b50e
block4e_add/add:0: 3ecaf9e1
batch_norm_output_buffer90: 3da150ee
block4f_expand_activation/mul:0_sig: 3c00ef67
block4f_expand_activation/mul:0: 3d147042
batch_norm_output_buffer80: 3e1ed67c
block4f_activation/mul:0_sig: 3c010a14
block4f_activation/mul:0: 3e096e5e
block4f_activation/mul:0_pooling0: 3cd6ffd1
convolution_output118: 3d6bead3
transpose_output118_sig: 3c00fa62
block4f_se_reduce/mul:0: 3d67c39c
convolution_output112: 3d78e7c1
block4f_se_expand/Sigmoid:0: 3be52e93
block4f_se_excite/mul:0: 3ca0e269
block4f_add/add:0: 3ed05963
batch_norm_output_buffer64: 3e0081fb
block5a_expand_activation/mul:0_sig: 3c010a14
block5a_expand_activation/mul:0: 3d9d4e3e
batch_norm_output_buffer57: 3e0bdf14
block5a_activation/mul:0_sig: 3c010a14
block5a_activation/mul:0: 3da91c2c
block5a_activation/mul:0_pooling0: 3cdb1a20
convolution_output89: 3d82f78e
transpose_output89_sig: 3bfb3e72
block5a_se_reduce/mul:0: 3ce4d20c
convolution_output83: 3cf9e406
block5a_se_expand/Sigmoid:0: 3c02de32
block5a_se_excite/mul:0: 3d0e7f17
batch_norm_output_buffer48: 3eb1cdd8
batch_norm_output_buffer65: 3db831ca
block5b_expand_activation/mul:0_sig: 3c0111de
block5b_expand_activation/mul:0: 3d286fcc
batch_norm_output_buffer59: 3e5aa7a5
block5b_activation/mul:0_sig: 3c010a14
block5b_activation/mul:0: 3ded1431
block5b_activation/mul:0_pooling0: 3d184c41
convolution_output93: 3dbaa404
transpose_output93_sig: 3c00ea4a
block5b_se_reduce/mul:0: 3d6279fb
convolution_output88: 3d7d0b3e
block5b_se_expand/Sigmoid:0: 3c0257e5
block5b_se_excite/mul:0: 3cc5efe3
block5b_add/add:0: 3eb3c972
batch_norm_output_buffer63: 3dadc473
block5c_expand_activation/mul:0_sig: 3c011223
block5c_expand_activation/mul:0: 3ce8067d
batch_norm_output_buffer56: 3e2c4959
block5c_activation/mul:0_sig: 3c010a14
block5c_activation/mul:0: 3da459bf
block5c_activation/mul:0_pooling0: 3d01e961
convolution_output87: 3d416475
transpose_output87_sig: 3c00ee90
block5c_se_reduce/mul:0: 3d41629a
convolution_output82: 3d427753
block5c_se_expand/Sigmoid:0: 3bf6a5ad
block5c_se_excite/mul:0: 3cafce0f
block5c_add/add:0: 3eb52d70
batch_norm_output_buffer61: 3dc01d08
block5d_expand_activation/mul:0_sig: 3c011210
block5d_expand_activation/mul:0: 3cc82622
batch_norm_output_buffer53: 3e4089d6
block5d_activation/mul:0_sig: 3c010a14
block5d_activation/mul:0: 3d99ef51
block5d_activation/mul:0_pooling0: 3d147d21
convolution_output81: 3d7d3d10
transpose_output81_sig: 3c086f3e
block5d_se_reduce/mul:0: 3d3e8a2d
convolution_output76: 3d9215f2
block5d_se_expand/Sigmoid:0: 3bf7de2a
block5d_se_excite/mul:0: 3cbb8bd6
block5d_add/add:0: 3ecfc95a
batch_norm_output_buffer58: 3da738f4
block5e_expand_activation/mul:0_sig: 3c0111a8
block5e_expand_activation/mul:0: 3d018643
batch_norm_output_buffer51: 3e3976fc
block5e_activation/mul:0_sig: 3c010a14
block5e_activation/mul:0: 3d6a3ca9
block5e_activation/mul:0_pooling0: 3d048b5c
convolution_output75: 3d3e597a
transpose_output75_sig: 3c0a8628
block5e_se_reduce/mul:0: 3d407777
convolution_output70: 3d8c6efc
block5e_se_expand/Sigmoid:0: 3bf268aa
block5e_se_excite/mul:0: 3cb8a6af
block5e_add/add:0: 3ee0788a
batch_norm_output_buffer55: 3db98030
block5f_expand_activation/mul:0_sig: 3c011223
block5f_expand_activation/mul:0: 3d13f067
batch_norm_output_buffer49: 3e2cb8ed
block5f_activation/mul:0_sig: 3c010a14
block5f_activation/mul:0: 3d71fad6
block5f_activation/mul:0_pooling0: 3d002708
convolution_output69: 3dd4d558
transpose_output69_sig: 3c05b3e9
block5f_se_reduce/mul:0: 3d7ac4bc
convolution_output65: 3d89e6d1
block5f_se_expand/Sigmoid:0: 3bfcb6da
block5f_se_excite/mul:0: 3ca128a6
block5f_add/add:0: 3edaff17
batch_norm_output_buffer33: 3deda296
block6a_expand_bn/FusedBatchNormV3:0: 3deda296
block6a_expand_activation/mul:0_sig: 3c010a14
block6a_expand_activation/mul:0: 3d499418
adjusted_input160: 3d499418
batch_norm_output_buffer95: 3ddd87d3
block6a_activation/mul:0_sig: 3c01121f
block6a_activation/mul:0: 3d40d9e5
block6a_activation/mul:0_pooling0: 3c5593bc
convolution_output152: 3ccb0d51
transpose_output152_sig: 3bf8887b
block6a_se_reduce/mul:0: 3cb0e0be
convolution_output143: 3c9dc00e
block6a_se_expand/Sigmoid:0: 3bdfa6ff
block6a_se_excite/mul:0: 3cdea4d3
batch_norm_output_buffer79: 3ea1288b
batch_norm_output_buffer105: 3daf58d9
block6b_expand_activation/mul:0_sig: 3c02135b
block6b_expand_activation/mul:0: 3ce77221
batch_norm_output_buffer99: 3e382efc
block6b_activation/mul:0_sig: 3c010a14
block6b_activation/mul:0: 3d68aece
block6b_activation/mul:0_pooling0: 3d16424a
convolution_output159: 3dce0472
transpose_output159_sig: 3c07411c
block6b_se_reduce/mul:0: 3d92a3ab
convolution_output151: 3d935e16
block6b_se_expand/Sigmoid:0: 3c0052cc
block6b_se_excite/mul:0: 3ce7d9f2
block6b_add/add:0: 3ea92967
batch_norm_output_buffer103: 3db443ed
block6c_expand_activation/mul:0_sig: 3c010ea3
block6c_expand_activation/mul:0: 3d034509
batch_norm_output_buffer94: 3e30155b
block6c_activation/mul:0_sig: 3c010a14
block6c_activation/mul:0: 3d6f7536
block6c_activation/mul:0_pooling0: 3d056be6
convolution_output150: 3dc42335
transpose_output150_sig: 3c099f8d
block6c_se_reduce/mul:0: 3d909546
convolution_output142: 3d8c6a02
block6c_se_expand/Sigmoid:0: 3c015460
block6c_se_excite/mul:0: 3cae9039
block6c_add/add:0: 3eafc715
batch_norm_output_buffer101: 3db7d9dc
block6d_expand_activation/mul:0_sig: 3c011163
block6d_expand_activation/mul:0: 3ce8906a
batch_norm_output_buffer89: 3e2ecb6c
block6d_activation/mul:0_sig: 3c010a14
block6d_activation/mul:0: 3d9c00fd
block6d_activation/mul:0_pooling0: 3d0293a7
convolution_output141: 3da5eec2
transpose_output141_sig: 3c01fe5e
block6d_se_reduce/mul:0: 3d933c6b
convolution_output133: 3d917120
block6d_se_expand/Sigmoid:0: 3c01c94f
block6d_se_excite/mul:0: 3cb20387
block6d_add/add:0: 3ea7d597
batch_norm_output_buffer98: 3db60b61
block6e_expand_activation/mul:0_sig: 3c01105c
block6e_expand_activation/mul:0: 3c992da5
batch_norm_output_buffer86: 3e368c11
block6e_activation/mul:0_sig: 3c010a14
block6e_activation/mul:0: 3d70c826
block6e_activation/mul:0_pooling0: 3d010040
convolution_output132: 3db68782
transpose_output132_sig: 3c0300ba
block6e_se_reduce/mul:0: 3d92ecde
convolution_output124: 3d8df509
block6e_se_expand/Sigmoid:0: 3c013dde
block6e_se_excite/mul:0: 3cd17238
block6e_add/add:0: 3eb834b1
batch_norm_output_buffer93: 3dc603bd
block6f_expand_activation/mul:0_sig: 3c011202
block6f_expand_activation/mul:0: 3ceffb94
batch_norm_output_buffer82: 3e36c999
block6f_activation/mul:0_sig: 3c010a14
block6f_activation/mul:0: 3da495ed
block6f_activation/mul:0_pooling0: 3d034a23
convolution_output123: 3dc4229d
transpose_output123_sig: 3c0aab1c
block6f_se_reduce/mul:0: 3d681d2a
convolution_output116: 3d9d4417
block6f_se_expand/Sigmoid:0: 3c00ee35
block6f_se_excite/mul:0: 3c8970ec
block6f_add/add:0: 3ec0a6c5
batch_norm_output_buffer88: 3dc36812
block6g_expand_activation/mul:0_sig: 3c011222
block6g_expand_activation/mul:0: 3d13bccc
batch_norm_output_buffer77: 3e401059
block6g_activation/mul:0_sig: 3c010a14
block6g_activation/mul:0: 3da4a04d
block6g_activation/mul:0_pooling0: 3ce7b936
convolution_output115: 3d8de67e
transpose_output115_sig: 3c0300d1
block6g_se_reduce/mul:0: 3d64b38c
convolution_output110: 3dc77368
block6g_se_expand/Sigmoid:0: 3c025833
block6g_se_excite/mul:0: 3cd5ae8e
block6g_add/add:0: 3ecffb4b
batch_norm_output_buffer85: 3db58285
block6h_expand_activation/mul:0_sig: 3c011145
block6h_expand_activation/mul:0: 3c6e5ae4
batch_norm_output_buffer73: 3e25d0fc
block6h_activation/mul:0_sig: 3c010a14
block6h_activation/mul:0: 3d918af4
block6h_activation/mul:0_pooling0: 3cc13dd6
convolution_output109: 3d2fcf32
transpose_output109_sig: 3c00a310
block6h_se_reduce/mul:0: 3d22ce31
convolution_output106: 3d612ada
block6h_se_expand/Sigmoid:0: 3bf2dd50
block6h_se_excite/mul:0: 3cad94d3
block6h_add/add:0: 3ed8b63a
batch_norm_output_buffer60: 3db50d04
block7a_expand_activation/mul:0_sig: 3c0111e6
block7a_expand_activation/mul:0: 3c8c5f1d
batch_norm_output_buffer52: 3e1e0433
block7a_activation/mul:0_sig: 3c010a14
block7a_activation/mul:0: 3d69f338
block7a_activation/mul:0_pooling0: 3cb33380
convolution_output79: 3d884bdf
transpose_output79_sig: 3c00bf7c
block7a_se_reduce/mul:0: 3d3eea9b
convolution_output73: 3db015af
block7a_se_expand/Sigmoid:0: 3c03cecf
block7a_se_excite/mul:0: 3cc51859
batch_norm_output_buffer43: 3e647ece
batch_norm_output_buffer62: 3dce7f69
block7b_expand_activation/mul:0_sig: 3c011039
block7b_expand_activation/mul:0: 3d13c1ae
batch_norm_output_buffer54: 3e1eb963
block7b_activation/mul:0_sig: 3c010a14
block7b_activation/mul:0: 3dcfc5f6
block7b_activation/mul:0_pooling0: 3d15b9c1
convolution_output84: 3df2ee24
transpose_output84_sig: 3c0283cc
block7b_se_reduce/mul:0: 3d618b7b
convolution_output78: 3ddcdbe8
block7b_se_expand/Sigmoid:0: 3c01ade5
block7b_se_excite/mul:0: 3ca7905f
block7b_add/add:0: 3e72dfd9
batch_norm_output_buffer37: 3e2fd9c9
top_activation/mul:0_sig: 3c011214
top_activation/mul:0: 3d432785
convolution_output46: 3e19c46e
decoder_stage0a_relu/Relu:0: 3d6f3d63
decoder_stage0a_bn/FusedBatchNormV3:0: 3d6f3d63
adjusted_input36: 3d499418
decoder_stage0b_relu/Relu:0: 3d666158
convolution_output24: 3d457a50
decoder_stage1a_relu/Relu:0: 3d8f4dbd
decoder_stage1a_bn/FusedBatchNormV3:0: 3d8f4dbd
adjusted_input17: 3d71f0f6
decoder_stage1b_relu/Relu:0: 3d87d7ad
convolution_output12: 3d6df23b
decoder_stage2a_relu/Relu:0: 3dbf8037
decoder_stage2a_bn/FusedBatchNormV3:0: 3dbf8037
adjusted_input6: 3dc9546c
decoder_stage2b_relu/Relu:0: 3d85f446
convolution_output4: 3d5006eb
decoder_stage3a_relu/Relu:0: 3dd49229
decoder_stage3a_bn/FusedBatchNormV3:0: 3dd49229
adjusted_input3: 3e1ca4ff
decoder_stage3b_relu/Relu:0: 3d466394
convolution_output2: 3e0193b4
decoder_stage4a_relu/Relu:0: 3d922a6b
decoder_stage4b_relu/Relu:0: 3d848a42
convolution_output: 3f286b3a
sigmoid/Sigmoid:01: 3c02f5e4
sigmoid: 3c02f5e4
